{
  "\u0120allocation": 2150,
  "patient": 924,
  "\u0120multiplication": 2443,
  "\u0120dur": 1671,
  "`;": 858,
  "database": 1323,
  "($": 2130,
  "\u0120apol": 2025,
  "5": 64,
  "\u0116": 254,
  "\u0120S": 421,
  "be": 2041,
  "R": 93,
  "<TASK:THREAT_ANALYSIS>": 8,
  "\u0120/": 330,
  "P": 91,
  "net": 2046,
  "\u0120dis": 998,
  "\u0112": 250,
  "reat": 2180,
  "\u0120verifyToken": 2723,
  "\u0120lifec": 2428,
  "CVE": 2210,
  "\u0120unnecessary": 1422,
  "\u0120code": 1049,
  "\u0120Failures": 652,
  "4722": 2743,
  "hift": 534,
  "\u0120author": 1756,
  "config": 932,
  "\u0120unauthorized": 1472,
  "\u0120verify": 1362,
  "syn": 1853,
  "\"": 45,
  "\u0120Read": 2409,
  "\u0120POST": 1631,
  "port": 812,
  "tes": 1198,
  "JNDI": 2536,
  "stor": 884,
  "aphQL": 1803,
  "\u0120Access": 482,
  "\u00ed": 213,
  "ebSocket": 1200,
  "\u0120currency": 1941,
  "from": 869,
  "\u0120tr": 1212,
  "\u0120offset": 1713,
  "\u00b4": 156,
  "MA": 2340,
  "size": 1577,
  "\u0120no": 1563,
  "ally": 2654,
  "\u0120Ex": 2591,
  "..": 2449,
  "\u0120h": 371,
  "ulti": 1254,
  "\u0120Validate": 2366,
  "4993": 2874,
  "\u0120cost": 1974,
  "ecod": 2285,
  "gql": 1721,
  "am": 353,
  "\u0120:=": 626,
  "\u0120search": 1101,
  "1992": 2742,
  "\u0120Forgery": 1134,
  "\u0120communication": 1907,
  "ification": 1277,
  "\u0120execu": 580,
  "21": 357,
  "915": 1299,
  "hitelist": 1003,
  "\u0120organization": 1477,
  "\u0120reject": 1291,
  "jw": 1458,
  "rithmetic": 2896,
  "96": 2112,
  "\u010e": 246,
  "\u0120across": 1295,
  "ssert": 1718,
  "mitting": 1234,
  "jacking": 1583,
  "daf": 2811,
  "\u0120variables": 1821,
  "led": 2220,
  "\u0120admin": 904,
  "31": 1115,
  "ware": 2430,
  "\u0120medical": 1229,
  "api": 380,
  "\u0120authorization": 1096,
  "Use": 756,
  "42": 2253,
  "cks": 1090,
  "aul": 2168,
  "thon": 1143,
  "hql": 736,
  "Write": 1309,
  "Rec": 1662,
  "Sli": 2541,
  "<FRAMEWORK:django>": 36,
  "400": 957,
  "\u0120Order": 1171,
  "report": 1755,
  "\u0119": 257,
  "718": 2801,
  "Verify": 1205,
  "\u0120gpa": 2197,
  "SS": 1702,
  "upload": 707,
  "tenant": 761,
  "\u0120D": 590,
  "\u0120accepts": 1194,
  "\u0120tampering": 1471,
  "\u0120retur": 453,
  "\u0120whitelist": 1550,
  "080": 2320,
  "1334": 2771,
  "\u0120file": 770,
  "workspace": 1655,
  "985": 2526,
  "hic": 710,
  "\u0120consumption": 1676,
  "\u0120Consumption": 2650,
  "fil": 1328,
  "ation": 340,
  "\u0120locks": 1092,
  "\u0120interpol": 640,
  "9514": 2810,
  "\u0120call": 1367,
  "ae": 2021,
  "9169": 2702,
  "good": 2841,
  "press": 1870,
  "rity": 843,
  "SHA": 2734,
  "\u0120Missing": 2310,
  "document": 1385,
  "ucation": 852,
  "RF": 1319,
  "700": 2498,
  "ND": 569,
  "il": 457,
  "ead": 983,
  "length": 2812,
  "switch": 1082,
  "for": 404,
  "erro": 933,
  "\u0120rpc": 1900,
  "\u0120Row": 1297,
  "ip": 779,
  "dom": 1942,
  "\u0120price": 1253,
  "board": 810,
  "memb": 1503,
  "Cre": 1155,
  "\u01200": 2176,
  "\u0120ar": 838,
  "ating": 671,
  "\u0120routing": 1889,
  "fin": 1056,
  "ery": 336,
  "Read": 2268,
  "ic": 446,
  "fetchall": 524,
  "ust": 822,
  "ive": 2569,
  "\u0120causing": 2377,
  "\u00ee": 214,
  "te": 310,
  "log": 2185,
  "<LANG:rust>": 30,
  "py": 2141,
  "q": 124,
  "\u00c8": 176,
  "870": 2518,
  "HPMailer": 2339,
  "fla": 2353,
  "\u00d4": 188,
  "SEL": 427,
  "86": 2163,
  "ddf": 2748,
  "\u0120handler": 1334,
  "\u00e5": 205,
  "515": 2257,
  "Vertical": 1626,
  "4373": 2728,
  "Side": 1008,
  "\u00c1": 169,
  "801": 2508,
  "\u0120dep": 1120,
  "<LANG:ruby>": 31,
  "\u00bd": 165,
  "\u0120magic": 1650,
  "167": 2316,
  "education": 854,
  "l": 119,
  "\u0120result": 1379,
  "al": 328,
  "oid": 2121,
  "MD": 1429,
  "serialization": 2893,
  "<LANG:csharp>": 32,
  "\":": 623,
  "cap": 2137,
  "\u00e7": 207,
  "\u00a2": 139,
  "\u0120Integer": 2718,
  "roken": 480,
  "ess": 860,
  "react": 2368,
  "\u0120escapeshel": 2840,
  "755": 2505,
  "oc": 722,
  "\u0120over": 2059,
  "\u0120mem": 1976,
  "\u00cb": 179,
  ",": 55,
  "\u0120tam": 978,
  "\u0120regex": 2201,
  "Input": 963,
  "190": 2096,
  "utual": 1890,
  "\u0120updates": 1187,
  "\u0120export": 2303,
  "\u0120injection": 1369,
  "sume": 1894,
  "<FRAMEWORK:express>": 37,
  "arp": 2011,
  "helmet": 2831,
  "\u0120Traversal": 1652,
  "\u00d3": 187,
  "\u0120cach": 2374,
  "\u0120schema": 1154,
  "\u0120'": 385,
  "\u0120cour": 1730,
  "5853": 2768,
  "719": 2500,
  "619": 2489,
  "\u0120clin": 1227,
  "\u0120java": 2061,
  "status": 942,
  "Output": 968,
  "body": 612,
  "7850": 2741,
  "forum": 1575,
  "ow": 1274,
  "\u00b2": 154,
  "icated": 1765,
  "ord": 724,
  "headers": 2327,
  "\u0120DoS": 1738,
  "ccess": 418,
  "PHI": 914,
  "15": 1979,
  "\u0120authHeader": 2649,
  "\u0120Depends": 676,
  "ct": 557,
  "Prevent": 2343,
  "<FRAMEWORK:standard_library>": 43,
  "4224": 2872,
  "web": 890,
  "\u0120Overflow": 2684,
  "\u0120markdown": 1968,
  "ew": 1311,
  "\u0120WHER": 430,
  "\u0120>": 1402,
  "M": 88,
  "\u0120la": 1496,
  "rust": 2359,
  "fdd": 2565,
  "si": 520,
  "})": 410,
  "\u0120own": 672,
  "parseHeader": 2863,
  "WASP": 1321,
  "\u0120(!": 2294,
  "\u010d": 245,
  "pay": 778,
  "arget": 801,
  "\u0120do": 1079,
  "\u0120API": 2222,
  "\u0120auth": 455,
  "lo": 361,
  "\u0120upload": 1473,
  "Policy": 1829,
  "ealthcare": 564,
  "<FRAMEWORK:aspnet>": 41,
  "Derive": 1306,
  "ades": 1849,
  "\u0120Control": 484,
  "\u0120Inform": 1243,
  "\u0120Parameter": 1679,
  "\u0120privilege": 1058,
  "<LANG:java>": 25,
  "500": 2481,
  "ursor": 2292,
  "curren": 677,
  "8287": 2510,
  "hQL": 1797,
  "RB": 1204,
  "abil": 2190,
  "235": 2782,
  "2982": 2786,
  "Assert": 1726,
  "\u00a9": 146,
  "S": 94,
  "function": 2674,
  "\u0120claim": 1301,
  "onent": 2082,
  "atch": 527,
  "ansi": 1642,
  "microservice": 1484,
  "ced": 2286,
  "\u0120lo": 773,
  "ML": 1339,
  "75": 2262,
  "\u0120columns": 1176,
  "\u0120inst": 1732,
  "ravers": 1611,
  "\u0120to": 389,
  "\u0120sub": 825,
  "\u0120discount": 1448,
  "ser": 327,
  "::": 2527,
  "\u0120table": 1361,
  "atures": 1711,
  "\u0120Out": 2060,
  "ty": 757,
  "Identifier": 1783,
  "\u0120tenant": 714,
  "7481": 2781,
  "7575": 2880,
  "19": 1954,
  "\u0120fgets": 2609,
  "ef": 376,
  "\u0120endpoint": 777,
  "\u0120document": 1584,
  "2938": 2785,
  "499": 2475,
  "ach": 1019,
  "<TASK:VULN_ANALYSIS>": 13,
  "flag": 2435,
  "\u0120th": 619,
  "max": 1799,
  "\u00fb": 227,
  "\u0107": 239,
  "mo": 2171,
  "king": 591,
  "\u0120object": 2228,
  "\u0120std": 2421,
  "L": 87,
  "LA": 2066,
  "5150": 2849,
  "a": 108,
  "\u0120identified": 533,
  "ax": 1795,
  "ace": 2546,
  "\u0120Dynamic": 1177,
  "cla": 1478,
  "Recalculate": 1700,
  "\u0120P": 469,
  "sump": 1600,
  "\u0120=>": 506,
  "\u0120In": 1179,
  "181": 2458,
  "veri": 2583,
  "En": 419,
  "pre": 1529,
  "A": 76,
  "cing": 1273,
  "\u0120defense": 1394,
  "ateway": 2897,
  "und": 2002,
  "\u0120throws": 2665,
  "student": 1107,
  "\u0120exit": 2685,
  "5113": 2825,
  "ures": 631,
  "ling": 950,
  "\u0120broadcasting": 1622,
  "admin": 510,
  "_": 106,
  "++": 2247,
  "':": 522,
  "3961": 2817,
  "279": 2462,
  "\u0120def": 1281,
  "109": 2721,
  "\u0120Injection": 853,
  "seats": 1712,
  "fef": 2275,
  "hich": 2627,
  "\u0120against": 735,
  "\u0120len": 2072,
  "isValid": 966,
  "sser": 1706,
  "43": 1475,
  "uct": 1290,
  "\u0120bcrypt": 1439,
  "internal": 1857,
  "active": 540,
  "TTP": 2135,
  "posure": 497,
  "LL": 2211,
  ")})": 956,
  "her": 1479,
  "391": 2468,
  "low": 828,
  "PostForm": 747,
  "|": 135,
  "92": 2164,
  "033": 2661,
  "11": 2451,
  "\u0120payload": 2682,
  "\u0120": 264,
  "fet": 477,
  "Classic": 2532,
  "\u0120rich": 1841,
  "gic": 1639,
  "ute": 383,
  "288": 2691,
  "\u0120member": 1825,
  "<TASK:SECURITY_REQUIREMENT>": 9,
  "\u0120{'": 678,
  "\u01206": 1766,
  "hiteli": 1001,
  "\u0120allowed": 1152,
  "sor": 2281,
  "\u0120Outdated": 2097,
  "\u0120sa": 1097,
  "count": 502,
  "ant": 517,
  "tect": 2297,
  "[^": 2544,
  "\u0120T": 1077,
  "\u0120interpolation": 1781,
  "dress": 2138,
  "ve": 363,
  "ssword": 1643,
  "Y": 100,
  "Implement": 754,
  "subject": 1412,
  "('/": 431,
  "ire": 529,
  "(\"": 625,
  "\u0120enterpri": 1719,
  "zed": 438,
  "\u0120boundary": 2424,
  "();": 2189,
  "law": 396,
  "\u0120decoded": 2330,
  "\u0120Bearer": 2195,
  "\u0120ORM": 1374,
  "servi": 472,
  "\u00b7": 159,
  "\u0120session": 1129,
  "938": 2523,
  "\u0120sendMail": 2715,
  "49": 1997,
  "\u0120att": 938,
  "\u0120ecommerce": 820,
  "Command": 953,
  "46": 1989,
  "09": 2076,
  "ch": 348,
  "('": 420,
  "ehr": 986,
  "\u0120cursor": 2376,
  "PointerException": 2431,
  "\u0120sp": 1532,
  "aae": 2547,
  "9011": 2854,
  "\u0120un": 916,
  "ast": 954,
  "vate": 2584,
  "verage": 2676,
  "10033": 2722,
  "\u00e0": 200,
  "only": 1769,
  "rest": 896,
  "5567": 2826,
  "\u0120Sanitize": 2643,
  "posu": 496,
  "\u0120client": 1057,
  "Broken": 481,
  "pri": 1391,
  "\u0120modification": 1742,
  "352": 1566,
  "onents": 2099,
  "\u0120parameterized": 1360,
  "sdk": 2360,
  "425": 2471,
  "Socket": 1196,
  "7475": 2879,
  "TP": 2134,
  "\u0120HTTP": 2149,
  "stud": 1104,
  "\u0120v": 718,
  "Pointer": 2267,
  "logging": 2429,
  "831": 2511,
  "app": 372,
  "\u0120signed": 1623,
  "\u0120rendering": 1840,
  "('\\": 2642,
  "x": 131,
  "elev": 1507,
  "4540": 2875,
  "\u0120col": 1165,
  "dd": 1973,
  "ultip": 2198,
  "lev": 1121,
  "\u0120gin": 630,
  "sult": 1032,
  "inim": 1767,
  "isconfig": 1782,
  "org": 781,
  "\u0120FLA": 2123,
  "\u0120CSW": 1616,
  "\u0120filtering": 2694,
  "662": 2484,
  "\u0120O": 788,
  "\u00f0": 216,
  "65": 2107,
  "seriali": 2607,
  "em": 696,
  "250": 1785,
  "reach": 1280,
  "yload": 2586,
  "\u0120healthcare": 632,
  "99": 1981,
  "records": 1137,
  "\u0120authenticate": 856,
  "\u0120storage": 1940,
  "Al": 2531,
  "SELECT": 433,
  "\u0120script": 1673,
  "cated": 1262,
  "gn": 474,
  "ointer": 2215,
  "gned": 1605,
  "efore": 1042,
  "\u0120role": 910,
  "ade": 1051,
  "\u0120String": 2645,
  "\u0120CVE": 2196,
  "334": 2789,
  "\u0120allow": 1024,
  "signin": 1069,
  "5482": 2791,
  "\u0138": 288,
  "up": 604,
  "__": 2136,
  "\u0120Qu": 1802,
  "150": 2749,
  "\u012012": 1444,
  "analy": 1925,
  "6": 65,
  "\u0120instructor": 1750,
  "ner": 1549,
  "\u0120enforcing": 1336,
  "line": 1715,
  "(?": 2448,
  "alysis": 1498,
  "ous": 1815,
  "\u0120communications": 1910,
  "quiz": 1553,
  "\u0120update": 1186,
  "\u0120execution": 581,
  "\u0120E": 1252,
  "\u0120verifi": 1025,
  "\u0120for": 369,
  "05": 1635,
  "ual": 1886,
  "419": 2473,
  "fer": 1016,
  "\";": 2446,
  "ray": 847,
  "holder": 1764,
  "authenticate": 1140,
  "\u0120go": 2095,
  "tur": 452,
  "Set": 1830,
  "ns": 1158,
  "WT": 1288,
  "cipient": 1081,
  "xt": 550,
  "ims": 1593,
  "\u0120save": 1161,
  "alidation": 1353,
  "7208": 2506,
  "du": 1310,
  "it": 552,
  "th": 323,
  "using": 837,
  "\u0120FIX": 2128,
  "bounds": 2899,
  "su": 401,
  "rom": 593,
  "ent": 343,
  "3910": 2871,
  "roservice": 977,
  "MAX": 2861,
  "j": 117,
  "solation": 1289,
  "232": 2463,
  "pr": 2576,
  "849": 2512,
  "5154": 2850,
  "fec": 2352,
  "path": 1922,
  "pend": 624,
  "gate": 1924,
  "teger": 2152,
  "nection": 1193,
  "2": 61,
  "\u0120Flaw": 538,
  "\u0134": 284,
  "\u0120instruct": 1733,
  "lowed": 2304,
  "aniti": 900,
  "ustom": 1740,
  "\u0120comm": 1887,
  "\u0120membership": 1621,
  "\u0120a": 311,
  "roup": 1366,
  "76": 2160,
  "eri": 386,
  "\u0120prevent": 719,
  "287": 1086,
  "\u0120string": 666,
  "urify": 1572,
  "ians": 1222,
  "\u0120str": 360,
  "06": 1542,
  "\u0120pagination": 1170,
  "pa": 570,
  "GraphQL": 1810,
  "LS": 1005,
  "\u00c4": 172,
  "8654": 2836,
  "\u0130": 280,
  "JS": 598,
  "\u0120Context": 2188,
  "ception": 2083,
  "ryptograp": 711,
  "fcb": 2564,
  "oS": 1728,
  "form": 1183,
  "Store": 1305,
  "ap": 321,
  "\u0120basket": 1560,
  "mplement": 451,
  "\u0120false": 2382,
  "Cap": 1163,
  "Second": 1787,
  "4695": 2761,
  "ut": 359,
  "=": 72,
  "\u0120es": 2143,
  "analytics": 1929,
  "<TASK:OWASP_MAP>": 11,
  "=\"": 2530,
  "tify": 1919,
  "grap": 560,
  "3905": 2816,
  "\u0120mand": 2293,
  "\u0120De": 526,
  "\u00cf": 183,
  "\u0120fla": 1888,
  "\");": 2300,
  "1409": 2823,
  "\u0120does": 2711,
  "\u0120saniti": 1125,
  "\u0120n": 1066,
  "Sec": 1753,
  "result": 1489,
  "||": 2587,
  "]": 104,
  "basket": 1959,
  "Id": 815,
  "ted": 463,
  "G": 82,
  "attach": 1533,
  "3157": 2712,
  "\u00ea": 210,
  "ear": 2139,
  "90": 2264,
  "\u00ab": 148,
  "\u0120static": 2423,
  "559": 2258,
  "gor": 1359,
  "fio": 2633,
  "\u00b8": 160,
  "\u0120m": 367,
  "redential": 2284,
  "scription": 1508,
  "word": 1641,
  "\u0120pointer": 2426,
  "imum": 1150,
  "\u0120endpoints": 1579,
  "amingException": 2386,
  "12": 2077,
  "entifi": 466,
  "dec": 2554,
  "024": 2301,
  "stric": 2223,
  "e": 112,
  "\u00f5": 221,
  "icy": 1819,
  "61": 2131,
  "API": 2040,
  "covery": 1895,
  "roadcast": 991,
  "coded": 2647,
  "pg": 2009,
  "execute": 518,
  "5282": 2877,
  "\u0120minim": 1776,
  "TLS": 1883,
  "\u0120model": 1315,
  "ardcoded": 2675,
  "\u0120read": 1731,
  "\u0120student": 1816,
  "\u0120decod": 2289,
  "anization": 1085,
  "plain": 2124,
  "\u0120pointers": 2866,
  "et": 333,
  "msg": 1937,
  "\u0120f": 332,
  "wor": 1348,
  "\u0120\u0120": 302,
  "Encrypt": 1230,
  "\u0120err": 2593,
  "worker": 1906,
  "\u0120service": 915,
  "\",": 729,
  "\u0120wor": 928,
  "\u013b": 291,
  "\u0120of": 792,
  "\u0120accesses": 2697,
  "enrollment": 1876,
  "do": 1957,
  "\"})": 739,
  "<FRAMEWORK:spring>": 38,
  "\u0102": 234,
  "\u0120submissions": 1684,
  "\u0120ser": 1031,
  "nal": 1415,
  "\u0120c": 316,
  "html": 1763,
  "\u00e2": 202,
  "\u0120filenames": 1685,
  "Require": 1882,
  "yp": 1495,
  "lied": 1606,
  "238": 2466,
  "tive": 485,
  "\u0118": 256,
  "208": 2184,
  "\u0120followed": 2442,
  "code": 1946,
  "93": 2038,
  "\u00e4": 204,
  "\u0120audits": 2416,
  "70": 2260,
  "1844": 2845,
  "/": 58,
  "\u0104": 236,
  "\u0120account": 715,
  "4494": 2754,
  "\u0120proactive": 541,
  "wit": 1071,
  "681": 2778,
  "\u0120assignment": 1824,
  "383": 2746,
  "9364": 2805,
  "\u0120Hijacking": 1607,
  "\u0120b": 436,
  "191": 2454,
  "1000": 2846,
  "sco": 1530,
  "\u0120with": 596,
  "dential": 2274,
  "\u0120sender": 1174,
  "St": 1267,
  "CW": 344,
  "gregate": 1926,
  "limit": 758,
  "portal": 993,
  "mple": 444,
  "25": 995,
  "47": 1955,
  "rusted": 2438,
  "CSP": 1814,
  "435": 2725,
  "\u013e": 294,
  "edback": 1526,
  "XSS": 1704,
  "\u0120claims": 1618,
  "\u0120buffer": 2058,
  "04": 687,
  "cept": 1188,
  "verify": 2585,
  "7047": 2878,
  "ard": 743,
  "\u0120outside": 1649,
  "\u0120routes": 2636,
  "dis": 1970,
  "ing": 318,
  "ub": 755,
  "\u0120atomic": 1683,
  "lment": 1401,
  "w": 130,
  "\u0120tamper": 1238,
  "Detect": 2394,
  "express": 2224,
  "minate": 2295,
  "\u0120limits": 2404,
  "param": 1027,
  "ify": 1567,
  "flows": 1665,
  "\u0120ec": 817,
  "\u0120bound": 2032,
  "\u0120SQL": 726,
  ".": 57,
  "role": 1365,
  "\u0120TLS": 1899,
  "tient": 799,
  "[": 102,
  "restric": 2369,
  "add": 2628,
  "\u0120secret": 1541,
  "ee": 2043,
  "ost": 641,
  "es": 786,
  "89": 635,
  "\u0120//": 587,
  "\u0120d": 329,
  "\u0120e": 835,
  "ge": 646,
  "7944": 2698,
  "ausing": 2344,
  "aas": 555,
  "ograp": 709,
  "\u0120bounds": 2127,
  "teli": 997,
  "\u0120rendered": 1950,
  "one": 2600,
  "\u012a": 274,
  "dersized": 2402,
  "PUT": 1625,
  "ommerce": 819,
  "icians": 1231,
  "action": 1084,
  "CSRF": 1557,
  "ence": 2370,
  "9931": 2755,
  "\u0120dereferencing": 2329,
  "\u0120vi": 1011,
  "\u0142": 298,
  "\u0120handshake": 1615,
  "avatar": 1451,
  "ild": 972,
  "6101": 2829,
  "67": 2108,
  "Security": 1347,
  "95": 2039,
  "\u0120command": 2218,
  "trans": 959,
  "eaff": 2720,
  "bo": 806,
  "\u00aa": 147,
  "955": 2807,
  "\u0120construct": 1774,
  "st": 309,
  "<|pad|>": 0,
  "\u0120flask": 1908,
  "Build": 975,
  "end": 443,
  "Ver": 1588,
  "\u0120use": 2367,
  "56": 2256,
  "4617": 2762,
  "\u0120safety": 2415,
  "execu": 402,
  "\u0120break": 2646,
  "Recalcu": 1695,
  "\u0120rows": 658,
  "greSQL": 1302,
  "\u0120Object": 2233,
  "\u0120page": 1561,
  "119": 2455,
  "83": 2162,
  "\u0120eliminate": 2306,
  "orization": 1074,
  "ken": 411,
  "\u0120accept": 1191,
  "\u00fc": 228,
  "\u013c": 292,
  "7407": 2780,
  "variables": 1992,
  "erce": 818,
  "ijacking": 1594,
  "289": 2461,
  "\u011c": 260,
  "158": 2750,
  "i": 116,
  "jav": 1845,
  "3757": 2834,
  "\u00a8": 145,
  "Pla": 1761,
  "\u0120limiting": 1111,
  ">": 73,
  "959": 2524,
  "le": 326,
  "mask": 2436,
  "bf": 2115,
  "ON": 599,
  "\u0120sql": 613,
  "ull": 2151,
  "<]": 2529,
  "Post": 741,
  "ened": 1327,
  "\u00f9": 225,
  "ream": 1349,
  "\u0120enterprise": 1720,
  "\u0120sec": 1181,
  "44": 1980,
  "\u013f": 295,
  "739": 2504,
  "s": 126,
  "\u0120vulnerabil": 2209,
  "\u0143": 299,
  "quest": 728,
  "\u0120group": 1757,
  "eca": 2602,
  "recipient": 1952,
  "Path": 1661,
  "\u0120token": 1214,
  "jang": 1867,
  "RLS": 1286,
  "stats": 1614,
  "<LANG:python>": 22,
  "Ex": 492,
  "\u00af": 151,
  "\u0120enforce": 2311,
  "8147": 2828,
  "\u0120robust": 1467,
  "7": 66,
  "witch": 1073,
  "features": 1714,
  "OS": 1585,
  "\u0103": 235,
  "\u0120golang": 2417,
  "\u0120explain": 2405,
  "sh": 782,
  "\u0120subscription": 1514,
  "target": 1142,
  "72": 2065,
  "service": 473,
  "ulner": 2013,
  "\u0120resolver": 1811,
  "2022": 2614,
  "me": 1868,
  "Main": 1219,
  "\u00dc": 196,
  "\u0120exec": 967,
  "\u0120||": 2598,
  "\u00c2": 170,
  "\u0120algorithms": 2315,
  "Authenti": 1377,
  "members": 1938,
  "lookup": 2626,
  "amic": 1167,
  "dfcf": 2820,
  "rol": 368,
  "\u0120fi": 663,
  "\u0120only": 1237,
  "08": 2029,
  "\u0137": 287,
  "Validate": 1061,
  "date": 1178,
  "398": 2815,
  "or": 312,
  "J": 85,
  "vel": 881,
  "\u0120hand": 878,
  "</CODE>": 21,
  "\u0120Con": 461,
  "authori": 1468,
  "\u0120Depend": 673,
  "o": 122,
  "group": 1860,
  "comment": 1109,
  "ensi": 1148,
  "\u0120require": 2287,
  "late": 1677,
  "\u0113": 251,
  "eh": 984,
  "fbc": 2792,
  "\u00eb": 211,
  "\u0120OWASP": 1333,
  "\u0120comp": 994,
  "histor": 920,
  "pp": 1208,
  "public": 2207,
  "81": 2110,
  "Audit": 2337,
  "diagno": 1020,
  "\u0120Res": 2408,
  "Cop": 2338,
  "\u0120data": 2050,
  "\u0120message": 1971,
  "multiply": 2437,
  "\u00db": 195,
  "odification": 1737,
  "\u0120content": 1675,
  "\u0120\u0120\u0120\u0120\u0120\u0120\u0120": 720,
  "\u0120nextjs": 2062,
  "[^<]*": 2889,
  "Tenant": 1287,
  "\u00d6": 190,
  "\u010f": 247,
  "\u0120le": 1261,
  "\u0120cart": 1724,
  "WebSocket": 1589,
  "2948": 2787,
  "mpact": 2226,
  "dir": 1555,
  "PHPMailer": 2411,
  "urren": 645,
  "251": 2705,
  "fy": 800,
  "media": 1426,
  "aram": 391,
  "essage": 1014,
  "631": 2487,
  "\u00bf": 167,
  "\u0120next": 2003,
  "\u012e": 278,
  "7125": 2802,
  "ense": 1393,
  "\u0120secure": 489,
  "\u00e9": 209,
  "7140": 2803,
  "\u0120address": 2148,
  "Enforce": 441,
  "generated": 1690,
  "\u0120dest": 1099,
  "ereference": 2839,
  "bound": 2689,
  "\u0120Misconfiguration": 1808,
  "\u0120Data": 917,
  "50": 2255,
  "<LANG:go>": 28,
  "RI": 2540,
  "cess": 400,
  "evalu": 1554,
  "4191": 2774,
  "ity": 1462,
  "ical": 807,
  "unsafe": 1836,
  "jwt": 1461,
  "\u0120pres": 1545,
  "ebe": 2671,
  "no": 1916,
  "op": 1494,
  "<|eos|>": 2,
  "cle": 2348,
  "\u0120if": 923,
  "\u0120proper": 1382,
  "\u0120Post": 1294,
  "0690": 2733,
  "\u0120re": 324,
  "\u0120Components": 2100,
  "\u0129": 273,
  "asset": 1951,
  "\u0120H": 594,
  "306": 1872,
  "01": 475,
  "\u0120in": 331,
  "5878": 2765,
  "wn": 647,
  "399": 2469,
  "da": 2042,
  "8042": 2881,
  "dba": 2813,
  "27": 2459,
  "323": 2699,
  "\u0101": 233,
  "by": 1156,
  "quire": 1848,
  "deb": 2557,
  "src": 523,
  "eed": 2350,
  "Buffer": 2093,
  "9558": 2808,
  "gr": 512,
  "tim": 1022,
  "r": 125,
  "ROM": 426,
  "data": 1796,
  "sync": 1858,
  "ret": 1538,
  "\u0136": 286,
  "\u0120graphql": 883,
  "51": 2104,
  "\u0120NullPointerException": 2433,
  "<LANG:cpp>": 27,
  "\u0120which": 2655,
  "\u00f6": 222,
  "Address": 2242,
  "alog": 1669,
  "\u0120timing": 1454,
  "\u0120$": 643,
  "073": 2695,
  "able": 832,
  "patch": 1962,
  "member": 1880,
  "tring": 2581,
  "ml": 1250,
  "rix": 2187,
  "<LANG:typescript>": 24,
  "',": 654,
  "gre": 1108,
  "<TASK:RISK_ASSESS>": 12,
  "\u0120escape": 2204,
  "Form": 746,
  "\u0120fet": 2608,
  "side": 1030,
  "ain": 618,
  "\u0120POS": 1604,
  "eld": 871,
  "input": 1537,
  "\u0133": 283,
  "0": 59,
  "B": 77,
  "\u0120Null": 2322,
  "fetch": 479,
  "li": 553,
  "age": 919,
  "448": 2753,
  "<\\/": 2886,
  "331": 2251,
  "ascript": 1936,
  "\u0120J": 1260,
  "));": 659,
  "\u0120+": 668,
  "arch": 872,
  "\u0120DOMPurify": 1647,
  "\u0120de": 467,
  "530": 2796,
  "\u0120al": 614,
  "Headers": 2240,
  "\u0120HTML": 1805,
  "059": 2736,
  "\u0120req": 565,
  "script": 2282,
  "ecurity": 927,
  "tected": 499,
  "elevate": 1516,
  "ses": 1023,
  "\u0120bytes": 1657,
  "OM": 415,
  "pro": 1039,
  "eak": 1407,
  "Exposure": 498,
  "490": 2319,
  "668": 2491,
  "ication": 1862,
  "\u0120Information": 1249,
  "fi": 378,
  "'.": 1827,
  "311": 1242,
  "ssing": 827,
  "request": 1509,
  "lt": 1029,
  "Purify": 1638,
  "mproper": 2395,
  "\u0120djang": 1869,
  "#": 46,
  "ination": 1854,
  "<SEC_CONTEXT>": 4,
  "rc": 503,
  "\u0120memb": 1270,
  "925": 2520,
  "revent": 716,
  "\u0120Unchecked": 951,
  "eal": 458,
  "very": 1875,
  "olang": 2403,
  "9106": 2701,
  "6138": 2830,
  "\u0120detected": 544,
  "users": 1773,
  "\u0120authenticateToken": 867,
  "\u0120import": 2651,
  "E": 80,
  "ilerpla": 1440,
  "043": 2668,
  "\u0120NULL": 2323,
  "amt": 1958,
  "valid": 944,
  "In": 393,
  "434": 1656,
  "\u0120URI": 2659,
  "\u0135": 285,
  "ribute": 1159,
  "\u0106": 238,
  "\u0124": 268,
  "atab": 636,
  "healthcare": 913,
  "De": 387,
  "lin": 1038,
  "InnerHTML": 1843,
  "emb": 1009,
  "ff": 2079,
  "ssic": 2387,
  "\u0120WHERE": 434,
  "stat": 870,
  "write": 2175,
  "4332": 2727,
  "PMail": 2166,
  "4": 63,
  "9967": 2757,
  "lySet": 1838,
  "\u0120Protected": 1245,
  "\u0120Level": 1271,
  "\u00f3": 219,
  "m": 120,
  "mit": 653,
  "ath": 1590,
  "\u00df": 199,
  "hi": 370,
  "\u0126": 270,
  "webapp": 892,
  "copg": 2012,
  "tical": 1570,
  "\u0120Tampering": 1686,
  "23": 2016,
  "annel": 763,
  "\u00c9": 177,
  "\u0120Dyn": 1169,
  "?": 74,
  "\u0120filename": 1055,
  "ocket": 1036,
  "\u0141": 297,
  "aramet": 397,
  "\u0120strictly": 1059,
  "dc": 2170,
  "C": 78,
  "9241": 2837,
  "\u0120resol": 1778,
  "row": 2371,
  "\u0120pa": 784,
  "\u0120undersized": 2412,
  "uthenti": 790,
  "\u0120ma": 898,
  "065": 2732,
  "ail": 607,
  "\u0120row": 1343,
  "Overflow": 2342,
  "W": 98,
  "uffer": 2024,
  "459": 2476,
  "rite": 1263,
  "77": 905,
  "\u0120credential": 2375,
  "ra": 628,
  "len": 2045,
  "\u0120user": 381,
  "6255": 2657,
  "Reader": 2856,
  "health": 824,
  "\u0120!": 945,
  "\u0122": 266,
  "\u00f8": 224,
  "order": 1199,
  "26": 2156,
  "\u0120Require": 2690,
  "finance": 1065,
  "\u0120identity": 1383,
  "\u0120IP": 1406,
  "\u0120factor": 1434,
  "const": 2193,
  "\u0120remo": 2181,
  "notify": 1921,
  "4632": 2759,
  "3032": 2870,
  "table": 1917,
  "afe": 1762,
  "5868": 2767,
  "field": 1372,
  "post": 408,
  "equest": 1118,
  "\u0120ri": 1832,
  "\u00f4": 220,
  "\u0120Circular": 1813,
  "GCM": 1203,
  "\u0120not": 1581,
  "\u0120modern": 1443,
  "json": 655,
  "0879": 2794,
  "mplexity": 1491,
  "\u0120process": 934,
  "\u0120depth": 1123,
  "\u0120asset": 1313,
  "\u0120transaction": 1088,
  ");": 2004,
  "\u0120mod": 894,
  "\u0120'{": 679,
  "tml": 1251,
  "mplementation": 542,
  "h": 115,
  "\u0120validation": 1354,
  "\u0120`": 861,
  "cdd": 2553,
  "principal": 1397,
  "\u00fa": 226,
  "fd": 2023,
  "\u00c7": 175,
  "ular": 1784,
  "bi": 1465,
  "ec": 315,
  "\u0120using": 846,
  "qu": 325,
  "\u0120Content": 1820,
  "umns": 1172,
  "adfb": 2630,
  "\u00b6": 158,
  "tering": 2580,
  "14": 2101,
  "inter": 1722,
  "\u0120attribute": 1160,
  "\u0120impact": 2227,
  "restricted": 2439,
  "cfe": 2552,
  "\u0120array": 848,
  "(": 51,
  "lows": 1645,
  "cee": 2604,
  "Length": 2888,
  "and": 392,
  "eferen": 2146,
  "\u0120});": 2217,
  "\u0120the": 694,
  "')": 516,
  "\u0128": 272,
  "acbe": 2635,
  "\u0120ign": 1678,
  "file": 962,
  "name": 634,
  "pol": 633,
  "\u0120switching": 2331,
  "jection": 525,
  "2975": 2788,
  "\u0120least": 1316,
  "\u0120dereferen": 2288,
  "ument": 1070,
  "ject": 804,
  "\u0120max": 1007,
  "\u0120handle": 488,
  "par": 2358,
  "\u0120s": 334,
  "00": 787,
  "\u0120Health": 1233,
  "oken": 766,
  "buffer": 2347,
  "Pri": 1727,
  "SQL": 798,
  "\u0120attributes": 1175,
  "\u0120stack": 2422,
  "CWE": 345,
  "bas": 1102,
  "rans": 780,
  "istry": 1902,
  "):": 667,
  "send": 767,
  "rpc": 1519,
  "\u0120login": 1464,
  "of": 2357,
  "\u0120Hash": 1442,
  "\u0120field": 1045,
  "arkdo": 1964,
  "cast": 990,
  "tal": 1943,
  "uration": 1775,
  "gs": 1206,
  "OLA": 2539,
  "\u0120broadcast": 1398,
  "Privilege": 1748,
  "lege": 839,
  "6208": 2495,
  "eedback": 2351,
  "07": 885,
  "\u0120check": 600,
  "ot": 1018,
  "pering": 1110,
  "sset": 1122,
  "\u0120subject": 1344,
  "bd": 1999,
  "ID": 1075,
  "sg": 1504,
  "u": 128,
  "\u0120trans": 1083,
  "XE": 2542,
  "ename": 996,
  "check": 814,
  "2918": 2465,
  "\u0131": 281,
  "ensive": 2236,
  "476": 2239,
  "\u0120db": 428,
  "Unchecked": 2858,
  "alu": 1539,
  "\u0120gRPC": 1901,
  "RM": 1357,
  "med": 1409,
  "\u0120spending": 1390,
  "\u0120typescript": 2027,
  "\u0117": 255,
  "pace": 1126,
  "\u0120C": 985,
  "\u0120direct": 670,
  "\u0120ad": 470,
  "\u0120saas": 665,
  "\u0120untrusted": 2892,
  "\u00b9": 161,
  "locate": 2625,
  "\u0120schem": 1149,
  "omm": 660,
  "generate": 1620,
  "uting": 1511,
  "Sensitive": 1220,
  "\u0120W": 414,
  "at": 341,
  "\u0120active": 1608,
  "\u0120fastapi": 1355,
  "\u0120resulting": 2420,
  "\u013a": 290,
  "3312": 2847,
  "HTML": 1828,
  "T": 95,
  "tenants": 1060,
  "teg": 1543,
  "\u0120match": 539,
  "\u0120database": 698,
  "\u00ac": 149,
  "\u0120remote": 2208,
  "54": 2020,
  "44228": 2860,
  "454": 2477,
  "\u0120ch": 478,
  "\u0120limit": 791,
  "permissions": 1578,
  "\u0120V": 2590,
  "here": 1482,
  "rollment": 1404,
  "value": 2328,
  "dated": 2071,
  "stem": 1863,
  "\u0120strict": 752,
  "fa": 2044,
  "k": 118,
  "411": 2773,
  "3515": 2833,
  "\u0120end": 775,
  "816": 2263,
  "\u0120spend": 1380,
  "\u0120limiter": 2838,
  "\u0120record": 1228,
  "char": 2385,
  "\u0120id": 504,
  "OMPurify": 1646,
  "act": 1352,
  "alid": 610,
  "\u0120curren": 1934,
  "angerous": 1826,
  "que": 706,
  "\u00e3": 203,
  "2310": 2869,
  "3": 62,
  "ate": 573,
  "\u010b": 243,
  "\u0120elevation": 1633,
  "JSON": 601,
  "ident": 1226,
  "rithme": 2648,
  "new": 1536,
  "load": 621,
  "cation": 462,
  "bufio": 2862,
  "lication": 2279,
  "chem": 1145,
  "\u0120cloud": 889,
  "\u0120Unp": 674,
  "\u0120minimal": 1791,
  "\u00a7": 144,
  "88": 2507,
  "\u0120co": 833,
  "\u0120passing": 2302,
  "\u0120disabled": 2735,
  "40": 2252,
  "\u0120XML": 2864,
  "502": 1859,
  "44716": 2873,
  "\u0120Fix": 574,
  "\u0120_": 960,
  "\u0120FLAW": 2129,
  "socket": 1982,
  "control": 1492,
  "<FRAMEWORK:flask>": 35,
  "hip": 638,
  "RPC": 1881,
  "kdo": 1961,
  "evaluate": 1556,
  "aa": 2271,
  "<TASK:REPAIR>": 18,
  "62": 515,
  "gain": 733,
  "gen": 1221,
  "\u0120veri": 841,
  "1389": 2770,
  "ance": 875,
  "\u0120an": 416,
  "\u0120FI": 2085,
  "cessive": 2639,
  "081": 2793,
  "<|unk|>": 3,
  "'s": 1565,
  "\u00f2": 218,
  "8279": 2776,
  "Connec": 1777,
  "\u0120uploaded": 1692,
  "\u0120sanitizeHtml": 2714,
  "arameterized": 448,
  "836": 2514,
  "588": 2764,
  "vent": 597,
  "ReadSlice": 2902,
  "bc": 2067,
  "HER": 425,
  "\u0120JWT": 1304,
  "285": 1257,
  "\u0114": 252,
  "32": 943,
  "ssi": 664,
  "PC": 1483,
  "\u0120private": 2692,
  "78": 1948,
  "filename": 1984,
  "rin": 976,
  "\u0120django": 1871,
  "sy": 1666,
  "efd": 2632,
  "\u0120t": 355,
  "js": 2057,
  "println": 2891,
  "fe": 949,
  "\u0120trust": 1653,
  "ue": 1874,
  "sort": 1640,
  "gno": 907,
  "event": 1591,
  "\u0120mrn": 1403,
  "\u0120Cross": 1725,
  "\u0120AES": 1211,
  "\u0120['": 2693,
  "jec": 456,
  "\u00cd": 181,
  "cat": 859,
  "\u0120AND": 576,
  "\u00ca": 178,
  "token": 1392,
  "<LANG:sql>": 33,
  "\u00ec": 212,
  "660": 2799,
  "8379": 2835,
  "\u0120null": 2710,
  "igin": 1592,
  "accounts": 1100,
  "\u0120function": 2145,
  "\u0120Handle": 745,
  "\u0120count": 2410,
  "\u0120events": 1046,
  "\u0120apache": 2440,
  "\u0120patient": 1296,
  "\u0120typ": 1499,
  "\u0120adhering": 545,
  "\u0120size": 2200,
  "\u0120Auth": 2291,
  "gth": 2118,
  "ES": 1195,
  "in": 303,
  "d": 111,
  "\u0120spring": 2052,
  "\u0120const": 486,
  "login": 961,
  "'": 50,
  "Bu": 931,
  "\u0120total": 1945,
  "85": 2037,
  "liminate": 2299,
  "point": 776,
  "\u0120uncontrolled": 2334,
  "account": 642,
  "169": 2730,
  "<SCHEMA_START>": 6,
  "essary": 1420,
  "ore": 727,
  "ifi": 1062,
  "pass": 1804,
  "\u0140": 296,
  "\u0120mutual": 1891,
  "message": 2008,
  "Limit": 2266,
  "uid": 450,
  "\u00fd": 229,
  "6815": 2779,
  "mp": 406,
  "28": 826,
  "Mail": 2113,
  "\u0120excessive": 2688,
  "zeHtml": 2707,
  "saas": 749,
  "sql": 627,
  "cip": 783,
  "og": 1223,
  "N": 89,
  "shop": 1513,
  "hell": 2243,
  "udit": 1146,
  "\u0120cat": 1668,
  "scal": 1255,
  "60": 2106,
  "\u0120diagno": 1598,
  "\u0120discovery": 1898,
  "unt": 501,
  "Disable": 2533,
  "\u00c5": 173,
  "g": 114,
  "\u0120credentials": 2865,
  "Connect": 1792,
  "462": 2470,
  "D": 79,
  "\u0120By": 1173,
  "\u0120CSWSH": 1634,
  "ak": 2545,
  "\u0120grpc": 2234,
  "\u0120threat": 2191,
  "anking": 609,
  "\u011e": 262,
  "che": 2384,
  "Whitelist": 1164,
  "acks": 1438,
  "\u00a1": 138,
  "chase": 1437,
  "custom": 1754,
  "af": 2114,
  "\u00a3": 140,
  "Flaw": 530,
  "866": 2515,
  "pc": 1207,
  "supp": 1601,
  "\u0120(": 394,
  "\u0120incoming": 1376,
  "def": 519,
  "5013": 2876,
  "evident": 1239,
  "69": 2109,
  "\u0120Use": 2231,
  "assignment": 1920,
  "success": 964,
  "Html": 2535,
  "\u0120bo": 1330,
  "PI": 1993,
  "cf": 2000,
  "\u0120F": 337,
  "\u0120constant": 1441,
  "ource": 738,
  "\u0120ID": 2703,
  "303": 2467,
  "679": 2486,
  "71": 2036,
  "ure": 1801,
  "\u0120w": 493,
  "\u00e8": 208,
  "\u0120*/": 2186,
  "\u0120#": 521,
  "routing": 1933,
  "fce": 2562,
  "dan": 2555,
  "\u00d8": 192,
  "RBAC": 1244,
  "6167": 2496,
  "\u0120potential": 2244,
  "\u0120authenti": 602,
  "\u0120where": 1864,
  "\u0139": 289,
  "3328": 2790,
  "\u0120char": 2296,
  "names": 1878,
  "price": 1913,
  "^": 105,
  "\u0120work": 1103,
  "\u00de": 198,
  "\u0120compari": 1447,
  "\u0120\"\";": 2666,
  "092": 2821,
  "\u0120*": 395,
  "pub": 2173,
  "authorization": 2669,
  "medical": 1010,
  "<]*": 2887,
  "\u0120quickly": 1317,
  "\u0120assign": 1053,
  "84": 2111,
  "void": 2174,
  "\u0120MIM": 1651,
  "format": 2313,
  "\u0120control": 494,
  "5389": 2798,
  "aly": 1256,
  "\u0120ac": 595,
  "');": 2298,
  "327": 1002,
  "user": 351,
  "\u0120Fail": 651,
  "<\\": 2528,
  "\u0120types": 1515,
  "9016": 2855,
  "VE": 2054,
  "\u010d\u010a": 300,
  "\u0120administrator": 1624,
  "exam": 1497,
  "\u0120Breach": 1298,
  "transcript": 1806,
  "\u0120dangerouslySetInnerHTML": 1844,
  "91": 947,
  "iali": 2571,
  "enticate": 1139,
  "227": 2713,
  "erpri": 1709,
  "atic": 2345,
  "di": 1547,
  "141": 2457,
  "02": 769,
  "\u0120si": 1544,
  "lang": 2575,
  "\u0120p": 349,
  "Ar": 1408,
  "to": 1268,
  "uuid": 897,
  "\u0120JSON": 1416,
  "\u012b": 275,
  "cri": 785,
  "\u0115": 253,
  "banking": 992,
  "788": 2739,
  "ry": 616,
  "9349": 2806,
  "\u0111": 249,
  "CID": 1378,
  "9536": 2809,
  "<TASK:CAPABILITY_PLAN>": 15,
  "\u0120o": 465,
  "1414": 2867,
  "Maintain": 1246,
  "t": 127,
  "03": 606,
  "filter": 1485,
  "wa": 2216,
  "der": 661,
  "ealth": 459,
  "ies": 2570,
  "\u0120Authorization": 2332,
  "params": 2309,
  "});": 650,
  "unction": 2091,
  "ani": 750,
  "\u0120Script": 1736,
  "699": 2490,
  "34": 2063,
  "met": 2354,
  "per": 713,
  "\u0120checks": 1780,
  "andard": 2637,
  "SH": 1558,
  "ereferen": 2179,
  "entified": 532,
  "\u0120records": 1166,
  "256": 1184,
  "lop": 507,
  "cce": 2551,
  "out": 603,
  "24": 2033,
  "\u0120safe": 1988,
  "711": 2321,
  "\u0120st": 1523,
  "db": 2055,
  "\u00e6": 206,
  "\u0109": 241,
  "lc": 2572,
  "\u0120boilerplate": 1457,
  "ia": 796,
  "55": 2105,
  "\u00f7": 223,
  "Lef": 536,
  "ame": 583,
  "verr": 2361,
  "\u0120en": 1067,
  "\u0120path": 2681,
  "\u0120transactional": 1687,
  "\u010a": 242,
  "bio": 1474,
  "operation": 1991,
  "matrix": 2427,
  "raw": 834,
  "ampering": 1674,
  "712": 2800,
  "analysis": 1975,
  "\u00be": 166,
  "checkout": 1469,
  "lind": 2574,
  "\u010c": 244,
  "Cryptographic": 753,
  "438": 2726,
  "fig": 879,
  "\u0120hash": 1411,
  "\u0120Function": 2612,
  "5093": 2848,
  "\u0120void": 2672,
  "ient": 1078,
  "erify": 1189,
  "el": 586,
  "17": 2102,
  "kspace": 1128,
  "ks": 764,
  "older": 1463,
  "\u0120html": 1574,
  "cords": 887,
  "\u0120order": 1127,
  "fety": 2398,
  "ential": 2087,
  "45": 2159,
  "ren": 644,
  "req": 656,
  "ated": 1524,
  "\u0120mail": 2389,
  "82": 1998,
  "29": 2017,
  "eries": 971,
  "er": 301,
  "Request": 2167,
  "ext": 2001,
  "\u0120integrity": 1672,
  "401": 2254,
  "Client": 1660,
  "\u0120explic": 2686,
  "ceed": 2605,
  "\u00da": 194,
  "K": 86,
  "\u0120UUID": 1680,
  "Valid": 771,
  "ata": 823,
  "SW": 1587,
  "52": 1506,
  "\u0132": 282,
  "irect": 575,
  "\u00ae": 150,
  "bute": 1157,
  "\u0120administr": 1580,
  "Grade": 1746,
  "\u0120as": 1312,
  "\u0110": 248,
  "\u0120HTTPException": 2832,
  "int": 765,
  "\u0120overflow": 2241,
  "\u0120unt": 2592,
  "\u0120override": 2444,
  "SRF": 1320,
  "our": 702,
  "\u0120Fi": 2610,
  "hardened": 1337,
  "store": 1410,
  "\u0120U": 571,
  "<|bos|>": 1,
  "\u0120rest": 589,
  "\u0120caller": 1388,
  "acc": 918,
  "ide": 708,
  "level": 1094,
  "}'": 579,
  "dfe": 2558,
  "authHeader": 2670,
  "\u0120sanitization": 1303,
  "Context": 744,
  "\u00d9": 193,
  "Out": 958,
  "\u0120fast": 1351,
  "force": 440,
  "inding": 795,
  "Deri": 1285,
  "crypt": 955,
  "\u0120complexity": 1493,
  "</SEC_CONTEXT>": 5,
  "*": 53,
  "\u0120Avoid": 2620,
  "22": 1124,
  "747": 2501,
  "\u0120matching": 547,
  "\u0120disable": 1617,
  "string": 2621,
  "U": 96,
  "\u0120defensive": 2238,
  "alcu": 1670,
  "\u0120I": 970,
  "f": 113,
  "\u0120secrets": 2731,
  "\u0120per": 813,
  "ault": 2206,
  "AC": 1218,
  "\u00ba": 162,
  "\u00b1": 153,
  "\u0120clo": 888,
  "ori": 899,
  "\u0120==": 2219,
  "\u0120boilerpla": 1452,
  "purchase": 1455,
  "dashboard": 811,
  "\u0120from": 704,
  "Argon": 1428,
  "\u0120transactions": 1375,
  "uthentication": 891,
  "erized": 447,
  "ba": 2169,
  "\u0120bindings": 866,
  "thme": 2606,
  "\u0120Fast": 2611,
  "1321": 2769,
  "ali": 1935,
  "channel": 936,
  "\u0120tim": 1418,
  "\u0120comparison": 1456,
  "ql": 407,
  "dcf": 2560,
  "organization": 1521,
  "ross": 1068,
  "ecu": 347,
  "~": 137,
  "469": 2758,
  "\u00dd": 197,
  "ensitive": 1201,
  "674": 2492,
  "\u0120Weak": 2641,
  "tion": 317,
  "dcba": 2890,
  "\u0120body": 1282,
  "\u0120interpolating": 683,
  "}'`;": 865,
  "\u0120dangerouslySet": 1842,
  "shel": 2680,
  "Stored": 1839,
  "\u0120this": 2075,
  "ER": 422,
  "\u0120hashing": 1427,
  "\u012c": 276,
  "5819": 2766,
  "I": 84,
  "sums": 1734,
  "v": 129,
  "roper": 2372,
  "7716": 2696,
  "<TASK:AGENT_PLAN>": 16,
  "\u0120checkout": 1682,
  "\u0120specifi": 1747,
  "2023": 2073,
  "\u0120vulnerability": 2245,
  "on": 305,
  "df": 2070,
  "content": 1460,
  "err": 648,
  "system": 1904,
  "\u0120ACID": 1381,
  "6384": 2851,
  "\u00c3": 171,
  "SP": 1093,
  "ycle": 2363,
  "\u0120Shift": 535,
  "\u0120headers": 1716,
  "`": 107,
  "ws": 476,
  "patients": 1141,
  "Just": 1414,
  "co": 439,
  "\u0120mandatory": 2333,
  "\u0120python": 1153,
  "\u0120(*": 2638,
  "dering": 1831,
  "\u0125": 269,
  "missions": 1185,
  "\u0120server": 1037,
  "64": 1987,
  "<LANG:c>": 26,
  "\u0120chat": 789,
  "\u0120Disable": 2400,
  "\u0120format": 2392,
  "secure": 689,
  "sycopg": 2014,
  "resources": 1091,
  "37": 2158,
  "({": 2336,
  "\u0120{": 382,
  "Con": 403,
  "isable": 2232,
  "put": 405,
  "score": 1535,
  "la": 364,
  "\u0120i": 464,
  "\u0120exam": 1851,
  "\u0120workflows": 1688,
  "quot": 1597,
  "pen": 2577,
  "572": 2777,
  "885": 2516,
  "<TASK:SECURITY_PLAN>": 14,
  "38": 1969,
  "\u0120po": 2081,
  "\u0120maximum": 1151,
  "res": 567,
  "id": 313,
  "444": 2752,
  "\u0120Al": 2618,
  "anitize": 1266,
  "rincip": 980,
  "<CODE>": 20,
  "gination": 1168,
  "mas": 2355,
  "us": 662,
  "9893": 2882,
  "bust": 1466,
  "\u0120missing": 842,
  "\u0120at": 693,
  "atory": 2317,
  "\u0120line": 2596,
  "\u0120A": 350,
  "cc": 2069,
  "road": 989,
  "tier": 1510,
  "\u012d": 277,
  "ssign": 973,
  "ering": 483,
  "ur": 365,
  "se": 514,
  "is": 697,
  "\u0120production": 1338,
  "13": 1995,
  "698": 2827,
  "\u0120double": 1386,
  "41": 1996,
  "%": 48,
  "\u0120password": 1648,
  "\u0120operations": 1346,
  "\u0120new": 2125,
  "\u0120during": 1697,
  "po": 342,
  "<TASK:CWE_CLASSIFY>": 10,
  "ac": 379,
  "earer": 2153,
  "\u0120'${": 864,
  "ryptographic": 712,
  "mpurify": 2640,
  "ol": 723,
  "ly": 513,
  "omic": 1681,
  "plic": 2578,
  "feedback": 1546,
  "ator": 1552,
  "\u0120Escal": 1258,
  "ffd": 2567,
  "\u00ff": 231,
  "\u0120upstream": 2235,
  "tics": 1927,
  "\u0120Escalation": 1259,
  "O": 90,
  "1396": 2772,
  "go": 2213,
  "\u0120inter": 615,
  "equire": 1866,
  "arameter": 703,
  "Authenticate": 1389,
  "ake": 1076,
  "\u0120X": 2364,
  "\u0120parameter": 748,
  "Z": 101,
  "struct": 1292,
  "422": 2472,
  "irc": 1798,
  ")):": 681,
  "785": 2738,
  "\u0120up": 1130,
  "ring": 1994,
  "\u0108": 240,
  "necessary": 1421,
  "\u0120ent": 1707,
  "ari": 1072,
  "Apply": 1717,
  "sk": 1885,
  "\u0120attacks": 1445,
  "figure": 1823,
  "Vulner": 2078,
  "<LANG:php>": 29,
  "\u0120pri": 831,
  "seHeader": 2656,
  ").": 562,
  "\u0120destination": 1856,
  "!": 44,
  "503": 2480,
  "\u0120PostgreSQL": 1307,
  "\u0120Privilege": 1619,
  "graphql": 737,
  "handle": 2277,
  "ase": 608,
  "\u0120ignore": 1698,
  "ction": 1322,
  "\u011a": 258,
  "ex": 377,
  "\u0120side": 1435,
  "\u0120memory": 1978,
  "\u0120reg": 1847,
  "mission": 1033,
  "Un": 2270,
  "ler": 1326,
  "cription": 1112,
  "\u0120aspnet": 2051,
  "ingException": 2378,
  "0347": 2662,
  "\u0120Scripting": 1751,
  "2419": 2795,
  "Left": 546,
  "dfb": 2561,
  "Add": 2133,
  "author": 1983,
  "804": 2509,
  "\u0120length": 2325,
  "\u00d7": 191,
  "\u0120se": 836,
  "OR": 2341,
  "Gr": 1308,
  "\u0120overwrite": 2202,
  "erous": 1817,
  "pi": 1569,
  "638": 2259,
  "ad": 373,
  "consume": 1896,
  "297": 2784,
  "\u0120Pri": 1232,
  "\u0120transi": 1654,
  "ants": 1779,
  "\u0120Re": 2407,
  "doc": 987,
  "978": 2522,
  "ecc": 2603,
  "704": 2497,
  "gin": 442,
  "Head": 2030,
  "\u0120allocate": 2664,
  "<LANG:javascript>": 23,
  "ca": 417,
  "931": 2521,
  "ss": 354,
  "140": 2822,
  "place": 1424,
  "Configure": 1837,
  "\u0120header": 1564,
  "uble": 1384,
  "\u0120host": 1892,
  "\u0120clinicians": 1248,
  "search": 1190,
  "ri": 445,
  "cu": 1664,
  "submit": 1852,
  "678": 2488,
  "\u0120anti": 1576,
  "pos": 2617,
  "\u0120Parameterized": 577,
  "nel": 762,
  "\u0120internal": 1877,
  "CM": 1202,
  "\u0120overr": 2396,
  "nec": 880,
  "dk": 2349,
  "5278": 2729,
  "inline": 1833,
  "unication": 1893,
  "\u0120directly": 684,
  "\u0120XSS": 2595,
  "\u0120unauthori": 1470,
  "']": 2246,
  "\u0120messages": 1573,
  "\u0100": 232,
  "901": 2265,
  "\u0120workspace": 1522,
  "}).": 680,
  "mTLS": 1884,
  "5080": 2483,
  "gener": 1247,
  "\u0120g": 1225,
  "\u0120unit": 1912,
  "Copy": 2434,
  "\u0120CWE": 500,
  "sis": 1117,
  "current": 686,
  "ms": 772,
  "1": 60,
  "537": 2797,
  "\u0120authenticated": 1609,
  "Site": 1703,
  "ULL": 2212,
  "\u0120?": 2589,
  "387": 2747,
  "\u0120patch": 2221,
  "Fix": 2534,
  "\u0120rateLimit": 2724,
  "str": 352,
  "un": 399,
  "en": 306,
  "\u0120algorith": 1373,
  "\u0120prescription": 1551,
  "sized": 2399,
  "\u0120channel": 1064,
  "\u0120before": 1043,
  "H": 83,
  "707": 2499,
  "hard": 1325,
  "\u0120fetch": 2894,
  "'];": 2844,
  "\u0120feedback": 2381,
  "EL": 424,
  "\u01201000": 2717,
  "\u0120M": 1035,
  "635": 2494,
  "9952": 2756,
  "bac": 2549,
  "\u0120Enforce": 2142,
  "\u0120FROM": 429,
  "\u0120Improper": 2704,
  "wire": 1063,
  "\u0120fil": 882,
  "head": 2278,
  "\u0120raw": 895,
  "\u00ce": 182,
  "ccc": 2818,
  "error": 935,
  "trol": 374,
  "ption": 1095,
  "com": 903,
  "vers": 1595,
  "581": 2763,
  "\u0120event": 939,
  "36": 2019,
  "\u011b": 259,
  "\u0120source": 1017,
  "ack": 1512,
  "as": 375,
  "ron": 2579,
  "\")": 731,
  "\u0120binding": 797,
  "text": 551,
  "bb": 2548,
  "\u0120enrollment": 1809,
  "\u0120B": 906,
  "lient": 921,
  "\u0120section": 1745,
  "\u0120csh": 2010,
  "source": 1520,
  "history": 922,
  "\u0120root": 1644,
  "Identification": 901,
  "ode": 1044,
  "ystem": 2362,
  "\u0120jav": 1846,
  "adef": 2629,
  "\u0120produ": 1331,
  "p": 123,
  "2078": 2616,
  "254": 2706,
  "';": 849,
  "\u0120Exposure": 1210,
  "preview": 1967,
  "assign": 1915,
  "Take": 1364,
  "021": 2450,
  "liance": 1332,
  "Exception": 2089,
  "\u0120System": 2644,
  "\u0120Modification": 1744,
  "ce": 319,
  "\u0120res": 491,
  "stream": 1350,
  "vi": 409,
  "pla": 1004,
  "8": 67,
  "Placeholder": 1788,
  "798": 1423,
  "<FRAMEWORK:actix>": 39,
  "\u0120express": 1923,
  "\u0120ded": 1771,
  "comments": 1540,
  "874": 2513,
  "\u0120cached": 2441,
  "reports": 1759,
  "\u0120analysis": 1735,
  "essages": 1113,
  ")": 52,
  "\u0120security": 2122,
  "\u0120/*": 2182,
  "\u0120r": 1116,
  "Qu": 1794,
  "atrix": 2383,
  "raversal": 1632,
  "\u0120constructs": 1790,
  "bad": 2273,
  "\u00a4": 141,
  "\u0120PHPMailer": 2397,
  "$": 47,
  "hering": 537,
  "{\"": 629,
  "\u0120all": 760,
  "2016": 2615,
  "back": 1525,
  "\u0120sqlite": 2663,
  "fset": 1705,
  "mi": 1021,
  "\u0120&&": 2597,
  "\u0120instead": 1758,
  "\u0120authentication": 768,
  "20": 339,
  "view": 1966,
  "\u0120RPC": 1897,
  "\u0120fol": 2380,
  "ment": 398,
  "folder": 1931,
  "enti": 366,
  "rincipal": 982,
  "where": 1918,
  "\u0120exceed": 2687,
  "\u0120stric": 751,
  "501": 2479,
  "Header": 2126,
  "multip": 2356,
  "ership": 639,
  "94": 2132,
  "Develop": 509,
  "\u0120concat": 863,
  "\u0120N": 2048,
  "ab": 559,
  "\u012f": 279,
  "\u0120submission": 1741,
  "isconfiguration": 1793,
  "989": 2519,
  "\u0120Unparameterized": 685,
  ";": 70,
  "imit": 2119,
  "de": 1865,
  "100": 2249,
  "Multi": 1278,
  "\u0120out": 877,
  "\u0120multip": 2390,
  "\u0120Forg": 1132,
  "497": 2775,
  "ti": 307,
  "min": 460,
  "\u00d2": 186,
  "\u00d5": 189,
  "\u0120nil": 2414,
  "For": 740,
  "hel": 2140,
  "unc": 725,
  "output": 965,
  "term": 873,
  "\u0120return": 454,
  "ternal": 2653,
  "\u0120cla": 1054,
  "\u0120handling": 1345,
  "\u0120=": 320,
  "\u0120logs": 1216,
  "dompurify": 2744,
  "velop": 508,
  "ganization": 1476,
  "alias": 1947,
  "sender": 1501,
  "rows": 657,
  "ariables": 1528,
  "\u00d0": 184,
  "atewa": 2660,
  "eaa": 2719,
  "ecifi": 1729,
  "use": 1459,
  "ln": 2573,
  "dered": 1949,
  "ging": 2276,
  "8629": 2658,
  "\u00bb": 163,
  "c": 110,
  "\u0120prices": 1691,
  "\u00fe": 230,
  "884": 2517,
  "\u0120lookup": 2092,
  "F": 81,
  "olicy": 1822,
  "\u0120name": 2365,
  "messages": 1487,
  "clause": 1481,
  "cy": 1930,
  "\u0120ren": 1490,
  "528": 2482,
  "ang": 1368,
  "ft": 531,
  "\u0120grants": 1786,
  "<": 71,
  "176": 2824,
  "import": 2214,
  "\u0120py": 1138,
  "\u0120\"-": 952,
  "ar": 346,
  "based": 1217,
  "Q": 92,
  "\u0120rate": 1396,
  "\u0120verified": 1240,
  "auth": 692,
  "ecure": 413,
  "Sanitize": 1272,
  "NDI": 2090,
  "\u0120filter": 1399,
  "erver": 1135,
  "\u00c6": 174,
  "Order": 1760,
  "ro": 308,
  "0296": 2679,
  "alse": 2379,
  "\u0120!=": 2700,
  "ers": 588,
  "<TASK:EVIDENCE_ANALYSIS>": 17,
  "\u0120ownership": 675,
  "actor": 1425,
  "\u0120health": 1265,
  "lassic": 2388,
  "\u0120recipient": 1144,
  "Arg": 1413,
  "\u0120qu": 805,
  "\u0120post": 1708,
  "hash": 2568,
  "\u0120maxHeaders": 2413,
  "362": 1089,
  "erpla": 1433,
  "um": 803,
  "pur": 1431,
  "\u0120microservice": 1182,
  "\u0120error": 2178,
  "eren": 2144,
  "Identifi": 816,
  "\u0120controls": 528,
  "862": 558,
  "<FRAMEWORK:fastapi>": 34,
  "\u0120matrix": 2391,
  "ceholder": 1770,
  "\u0120slow": 1419,
  "@": 75,
  "\u0120audit": 1180,
  "120": 2155,
  "\u00b3": 155,
  "jac": 1568,
  "\u0120>=": 1453,
  "\u0120Circ": 1807,
  "ed": 335,
  "X": 99,
  "\u0120R": 821,
  "\u0120input": 505,
  "ter": 487,
  "18": 2248,
  "\u0120target": 1000,
  "\u0120UUIDs": 1699,
  "\u0120allowing": 1743,
  "53": 2034,
  "80": 2161,
  "58": 1990,
  "forcing": 1329,
  "\u0120apa": 2373,
  "Vulnerable": 2098,
  "SSRF": 1873,
  "V": 97,
  "\u0120markdo": 1965,
  "73": 2261,
  "2021": 358,
  "isValidInput": 969,
  "dfdd": 2819,
  "tain": 1224,
  "\u0120vulner": 2192,
  "lic": 2120,
  "ort": 649,
  "-": 56,
  "\u0120Connection": 1603,
  "peration": 1050,
  "\u0120access": 911,
  "istr": 1341,
  "\u0120con": 362,
  "ern": 1432,
  "gorith": 1363,
  "\u0120Isolation": 1300,
  "Weak": 1430,
  "15084": 2901,
  "striction": 2843,
  "ffer": 1960,
  "all": 490,
  "okup": 2053,
  "supplied": 1630,
  "ul": 981,
  "\u0120\u0120\u0120": 314,
  "ssion": 793,
  "\u0120pydan": 2716,
  "Explain": 2229,
  "uard": 2582,
  "200": 568,
  "9": 68,
  "ables": 1527,
  "\u0120doc": 1571,
  "tegrity": 1658,
  "\u0120operation": 1098,
  "ud": 688,
  "\u0127": 271,
  "1770": 2453,
  "68": 2006,
  "\u0120catalog": 1696,
  "\u0120Price": 1689,
  "b": 109,
  "\u0120Limit": 2314,
  "\u0120switch": 2290,
  "chat": 1517,
  "\u0120or": 605,
  "aec": 2272,
  "NT": 2538,
  "\u00b5": 157,
  "n": 121,
  "App": 1701,
  "andle": 435,
  "work": 1879,
  "\u0120diagnosis": 1628,
  "${": 857,
  "}": 136,
  "dcb": 2559,
  "\u0120.": 2588,
  "PMailer": 2205,
  "447": 2474,
  "272": 2250,
  "time": 1449,
  "ag": 1914,
  "EC": 423,
  "\u0120uncontrol": 2307,
  "\u0120enforcement": 2432,
  "bject": 2068,
  "ith": 566,
  "Integer": 2225,
  "),": 669,
  "66": 2035,
  "rder": 1034,
  "ix": 572,
  "74": 2007,
  "safe": 1800,
  "\u00a6": 143,
  "\u00b0": 152,
  "fcf": 2566,
  "acb": 2634,
  "av": 1119,
  "{": 134,
  "mport": 2147,
  "2890": 2868,
  "od": 471,
  "ading": 2393,
  "\u0120Cryptographic": 1417,
  "\u0120hostnames": 1909,
  "eb": 705,
  "shake": 1612,
  "issing": 830,
  "757": 2503,
  "231": 2464,
  "ASP": 1318,
  "cript": 929,
  "\u0120Comp": 2094,
  "9319": 2883,
  "35": 2157,
  "\u0120permitting": 1236,
  "\u00ef": 215,
  "cal": 1028,
  "export": 1818,
  "sign": 611,
  "\u0123": 267,
  "z": 133,
  "key": 886,
  "\u0120verification": 1562,
  "aggregate": 1928,
  "mrn": 1486,
  "ond": 1768,
  "1508": 2751,
  "ats": 1710,
  "\u0120assigned": 1241,
  "\u0120concatenation": 868,
  "\u0120send": 1131,
  "cd": 2116,
  "omp": 2080,
  "],": 850,
  "atar": 1436,
  "re": 304,
  "enant": 556,
  "icroservice": 979,
  "grades": 1850,
  "))": 511,
  "fade": 2563,
  "\u0120FastAPI": 2895,
  "\u0120and": 437,
  "\u0120msg": 1505,
  "\u0120throw": 2401,
  "\u0120lifecycle": 2445,
  "documents": 1534,
  "bil": 1279,
  "\u00c0": 168,
  "IM": 1636,
  "\u00bc": 164,
  "4654": 2760,
  "ommand": 937,
  "tec": 495,
  "\u0120default": 2237,
  "mail": 2280,
  "\u0120OS": 2683,
  "broadcast": 1340,
  "\u0120int": 2183,
  "\u0105": 237,
  "\u0120api": 1596,
  "\u0120via": 1012,
  "Insecure": 690,
  "211": 2622,
  "queue": 1911,
  "ze": 1013,
  "ev": 1015,
  "\u0120:": 412,
  "room": 1342,
  "\u0120\u0120\u0120\u0120": 717,
  "\u0120checking": 2074,
  "\u0120username": 1105,
  "rypt": 617,
  "\u0120permissions": 2406,
  "107": 2452,
  "33": 2018,
  "\u0120request": 940,
  "\u0120incom": 1370,
  "ting": 1209,
  "\u0120Pro": 1215,
  "\u0120Le": 1269,
  "<FRAMEWORK:rails>": 40,
  "yn": 1047,
  "\u0120csharp": 2015,
  "\u0120jwt": 2594,
  "770": 912,
  "\u0120Assert": 2619,
  "son": 622,
  "\u0120Query": 1812,
  "\u0120connection": 1599,
  "ources": 1080,
  "\u0120MIME": 1659,
  "\u0120Un": 592,
  "\u0120is": 2088,
  "+": 54,
  "profile": 1040,
  "PU": 1586,
  "&&": 2447,
  "location": 2086,
  "username": 1855,
  "\u0120checksums": 1739,
  "8163": 2852,
  "Shell": 2269,
  "get": 561,
  "im": 829,
  "10": 1356,
  "\u0120unhandle": 2308,
  "\u0120query": 390,
  "\u0120APIs": 2842,
  "\u0120Authentication": 893,
  "\u0120on": 902,
  "eck": 548,
  "\u0120again": 734,
  "\u0120javascript": 1939,
  "cord": 774,
  "cb": 1956,
  "}'\"": 682,
  "()": 468,
  "\u0120explicit": 2898,
  "\u0120models": 1387,
  "48": 2103,
  "9571": 2885,
  "\u0120notes": 1582,
  "ick": 1293,
  "cart": 948,
  "677": 2485,
  "iagno": 908,
  "\u00e1": 201,
  "\u0120websocket": 1985,
  "520": 2478,
  "dispatch": 1972,
  "\u0120pro": 449,
  "\u0120Security": 1276,
  "\u0120head": 1213,
  "items": 930,
  "an": 322,
  "&": 49,
  "xity": 1488,
  "care": 563,
  "dbde": 2814,
  "\u0120compliance": 1335,
  "\u00f1": 217,
  "['": 2543,
  "UID": 1663,
  "ress": 2049,
  "reak": 2599,
  "\u0120sanitized": 1977,
  "59": 1986,
  "\u013d": 293,
  "\u0120readRequest": 2737,
  "ded": 2556,
  "\\": 103,
  "<SCHEMA_END>": 7,
  "\u0120quick": 1314,
  "roles": 1903,
  "\u0120open": 2652,
  "\u0120stor": 1932,
  "\u0120psycopg": 2026,
  "\u0120implementation": 543,
  "16": 1518,
  "Invalid": 946,
  "ory": 1963,
  "pt": 549,
  "rn": 1041,
  "\u0120NamingException": 2425,
  "\u0120WebSocket": 1602,
  "dash": 808,
  "Server": 1136,
  "mat": 2172,
  "\u0120lab": 1502,
  "115": 2456,
  "221": 2460,
  "293": 2783,
  "set": 1667,
  "\u0120ro": 356,
  "Injection": 554,
  "efb": 2631,
  "diagnoses": 1026,
  "\u00d1": 185,
  "payload": 1006,
  "\u00a5": 142,
  "764": 2502,
  "con": 721,
  "bbc": 2550,
  "email": 1235,
  "ans": 701,
  "\u0120Design": 691,
  "<FRAMEWORK:gin>": 42,
  "21700": 2624,
  "\u0120state": 1693,
  "ite": 851,
  "art": 876,
  "<TASK:VERIFY>": 19,
  "\u0120Request": 1133,
  "7828": 2740,
  "context": 2673,
  "pnet": 2047,
  "zation": 730,
  "\u0120ex": 802,
  "2020": 2613,
  "\u0120pydantic": 2900,
  "billing": 1284,
  "\u0120preventing": 1405,
  "\u0120dataBuffer": 2324,
  "edical": 809,
  "\u0120transition": 1694,
  "8515": 2804,
  "sub": 1114,
  "\u0120socket": 1944,
  "TML": 1358,
  "\u0120apollo": 2028,
  "ECT": 432,
  "QL": 578,
  "442": 2318,
  "transfer": 1087,
  "fb": 2022,
  "\u0120education": 1052,
  "\u0120cryptographic": 1723,
  "\u0121": 265,
  "vilege": 840,
  "ody": 584,
  "iz": 1548,
  "\u0120\"": 620,
  "\u0120dangerous": 1834,
  "flow": 2056,
  "Inner": 1835,
  "\u0120principal": 1275,
  "\u011f": 263,
  "\u0120without": 1106,
  "\u0120that": 1192,
  "\u0120[": 845,
  "ReadSli": 2857,
  "Token": 844,
  "\u00cc": 180,
  "\u0120}": 585,
  "\u0120pot": 2203,
  "PH": 909,
  "y": 132,
  "\u0120flaw": 2084,
  "atabase": 637,
  "957": 2525,
  "entity": 1371,
  "\u0120algorithm": 1400,
  "ary": 1395,
  "query": 338,
  "39": 2064,
  "fc": 2117,
  "bu": 2346,
  ":": 69,
  "idence": 2601,
  "\u011d": 261,
  "\u0120into": 1772,
  "9595": 2884,
  "tach": 1531,
  "tent": 988,
  "\u0120flaws": 2326,
  "asket": 1559,
  "\u0120fields": 1450,
  "\u0120leading": 2418,
  "\u0120100": 1147,
  "\u0120origin": 1610,
  "final": 2709,
  "\u0120JNDI": 2199,
  "\u0120Direct": 855,
  "gets": 2230,
  "\u0120elev": 1613,
  "tic": 1861,
  "\u0120sort": 999,
  "verflow": 2194,
  "quota": 1627,
  "valu": 2283,
  "Len": 2537,
  "ash": 700,
  "693": 2493,
  "\u0120web": 1480,
  "\u0120banking": 699,
  "\u0120L": 1197,
  "\u0120dedicated": 1789,
  "enation": 862,
  "cate": 695,
  "sumption": 1629,
  "func": 732,
  "ket": 874,
  "miter": 2708,
  "uth": 384,
  "97": 2165,
  "\u0120copy": 2305,
  "\u0120registry": 1905,
  "79": 926,
  "String": 2419,
  "Create": 1162,
  "\u0120unhandled": 2335,
  "57": 2005,
  "\u01201": 925,
  "Log": 1637,
  "\u0120course": 1749,
  "\u0120escap": 2154,
  "040": 2667,
  "ea": 1324,
  "checked": 941,
  "218": 2623,
  "intln": 2677,
  "ind": 794,
  "om": 582,
  "\u0120route": 388,
  "8164": 2853,
  "\u0120gr": 1048,
  "Unrestricted": 2859,
  "\u0120by": 1500,
  "ke": 742,
  "ver": 759,
  "\u0120queries": 974,
  "ok": 2031,
  "session": 1953,
  "918": 1446,
  "olation": 1283,
  "\u0120sendmail": 2312,
  "029": 2678,
  "381": 2745,
  "\u0120grade": 1264,
  "\u0120li": 2177,
  "\u0120specific": 1752
}